memory_initialization_radix=16;
memory_initialization_vector=00005736 FFFF101E FFF64275 0000935B FFF8BF47 FFF6851F 0005C56D FFFD0395 FFFEAF00 0008B8B0 0004B3F2 0000814B FFFBD520 0002F8E3 FFF4D2A9 FFFA970A 00024320 FFFD2857 FFFA6900 FFFBD761 FFFCD26A FFF67D33 FFFD751B 00046119 FFF9D6AA 00051088 FFFE149D 0005B129 00046171 0008F355 FFFBA72B FFFE7161 000610AB FFFED064 00039956 FFFAEB27 0004EFF7 00021E3E 00040516 000026F3 000201E2 FFFB6635 0002B2C8 FFFDC68F FFF6BE4D 00058696 FFFA81E5 FFFD2DF1 FFFF2A3B 00097BC3 0003FA1C FFF6BA33 00058867 FFF8C489 FFF70C1E FFF410AA FFF9DED5 FFFEE7D0 FFF69677 0007F66C FFF56274 00090772 FFFFA30A FFFB3CD0 00036F13 00071C02 FFFE5376 00053654 0007A5D4 000932CC FFFB6342 00088D9F FFF7B566 FFF1CDF3 0003746E FFF8863C 00049FC8 FFFF0E61 FFFD789D FFFBBDB2 FFFC8521 000577A4 FFFCCD0A FFFFB06D 00045AF0 FFFC1035 0007397B FFFD6DB8 FFF6AE28 000848DC 00046BFE 0004CE7A 00086A1C FFFAF078 00014732 FFFEBEC1 000004EA 00059227 FFF5E12D 0004E4A3 00053022 00085A0B FFFDDCEF 000435CE 00049ACF FFFEE661 00011144 FFF42870 00038FA7 FFF723E6 FFFAADD8 00087759 0002B22A FFF69A74 00088F14 0002B697 FFFCEE9A 0003B350 0003B0CE 00046EF8 00051457 FFFB3251 0009A8DE 00042CE4 0002C538 FFFEFB53 FFFA74EB FFF43E5A 000010E6 FFF9AAC4 0003FCBF 0004CF3D 0002DF7E 00043C4B FFFE645F 00074E52 00020AED FFFA54D9 FFFC172F FFF66EE6 00050029 00005747 00031E66 0008B48D FFF6CA2C FFF663B1 00014A3E FFF98D22 00040481 FFFE6513 0005378A FFF69EA0 FFFA9F8F FFFBF3A2 00013BA5 FFFBF9DA FFF880CE FFFED457 FFF82A54 FFF91DF8;
