00000000000001100010100100000010
00000000000000010111010110000001
11111111111101101001101011000000
00000000000010011101100000000101
00000000000001010000010001011001
11111111111101111111000100000001
11111111111111010110000110001001
00000000000001100110010100111010
00000000000010011011000110100010
00000000000001110000111101111011
11111111111110111110011111100000
11111111111110100110010010100100
00000000000000111011100101100110
11111111111111000100111110111110
00000000000010000100010000001000
11111111111110111010101101111110
00000000000001100100011100001100
11111111111111111100111000110000
11111111111101011100100000110101
00000000000001110111000110110000
11111111111111011010010011111001
11111111111111000100110111100000
00000000000001010100110101111111
11111111111100111111101101010101
00000000000000011101000011010000
00000000000000000110100110010001
00000000000000100000000101101111
11111111111111100110111100100000
11111111111110011010110111011010
11111111111111101110011010111101
11111111111110010010101000111101
00000000000001101111101110001101
11111111111101101100001111011001
00000000000001110110000001010010
00000000000000110101111100000010
11111111111101101011011000010100
11111111111101110000101010011110
00000000000001101111111101010110
00000000000001110110000101100111
11111111111101000100110110010101
00000000000000100111101011000110
11111111111101101011010110000111
00000000000000000100111000100100
11111111111111011000111111111100
00000000000000001000010100001011
11111111111101110100100101001100
00000000000000110001001011010101
11111111111111101000111101011011
11111111111101111000110101011111
11111111111101110111101110010000
11111111111110001001001000001101
11111111111111001101000010011000
11111111111101101101110011001001
00000000000001111010011000000100
11111111111111001010111110010001
11111111111111011110101111000101
11111111111110001100101011101101
00000000000001010011001110000111
00000000000000001100001110101100
00000000000001011010101011100010
11111111111110010000110000110011
00000000000001101110010001111101
00000000000000010001001000101011
11111111111110011111011101100100
00000000000000111101100011100000
11111111111110110000101111100110
00000000000000101011111111011011
11111111111101100110101001100010
11111111111111001000010001000001
11111111111110101110000101000100
00000000000001110000010000111110
00000000000001100001110101010101
11111111111110010110011001101011
11111111111101010111011010110010
00000000000001100010001111001000
11111111111110000001110001011011
00000000000000000100101111100110
11111111111101111111101011001101
00000000000001110100010101100100
00000000000001000001000110110011
11111111111101101111010111111100
11111111111111011000110110101000
00000000000001010011111100010001
11111111111111000000100011000111
00000000000010000111001001110011
00000000000001110100101101100001
00000000000000001100011001001011
00000000000001111011111000011000
00000000000001101001010011010101
00000000000010000110110001001110
00000000000001001111000011100110
00000000000010010010001001100011
11111111111110001100101001101011
11111111111111011101011010100000
11111111111111100101101101000111
11111111111110000010101110101100
00000000000010011110000110011011
00000000000001001101011000011101
00000000000000100001111100110110
11111111111101100011101000100010
11111111111110100110101000111110
11111111111101101110111110110011
00000000000000010011001010110101
00000000000010000001111011111011
00000000000000101011111011001010
11111111111111001100000010100111
11111111111111111110110010010010
00000000000010000001011001000110
11111111111110100001111111010000
00000000000000100001111100110110
11111111111101101110000000011010
11111111111111001110110100101101
11111111111100011000100100101001
11111111111111101111100001100000
11111111111101100111001010001101
00000000000001011100101010101111
11111111111111111000011110110000
00000000000001010000111110011111
00000000000010001100111101001100
00000000000000100011111000001001
11111111111101101001010111000111
11111111111101010000101100101111
00000000000001000101111011010000
00000000000001010110110101000011
00000000000010000110011001100100
00000000000010010101101011101110
00000000000000010101110000000101
11111111111101100100111111111011
11111111111111111011110011101111
11111111111101110100111000100011
11111111111111100101101000100001
00000000000000001011011011110001
11111111111111011010010001110111
11111111111110010011011010001001
11111111111101000001011101111011
00000000000001011111111001100111
11111111111111010111100111111011
00000000000000111011100110110010
00000000000010000111000000100011
11111111111111001010111110011011
11111111111111111010011010110110
00000000000000111100101000010110
00000000000001000110110011100111
00000000000000000100011011011010
00000000000000010010011011100111
00000000000000110010110101110000
00000000000001011011100010100001
11111111111111100000011010100111
00000000000001000111001110100111
00000000000001100011100110001100
11111111111101011001011010111000
11111111111111111101011101000101
11111111111110010000001001001110
00000000000000011010010110011100
11111111111111111110011101010010
00000000000000111101100110011000
00000000000010011110101111001110
00000000000010010001001110111100
00000000000010010111011010100000
00000000000001101100000001000100
