00000000000001110000010100101011
00000000000001111110000001000011
00000000000000000000101010111111
11111111111101111100011101111110
00000000000001011100011001110011
00000000000001000000111100010100
00000000000000000011101101111111
11111111111101100111100000000010
00000000000010010101101011010011
11111111111101101100001011001011
11111111111110101010111000001111
11111111111110010011011010000101
00000000000001010001100011101101
00000000000001000110101101001000
00000000000001101011100011010011
11111111111101100100000111000000
11111111111111000110011101110001
00000000000011010001000111110000
11111111111111000001100001101000
00000000000001101111011010000111
11111111111100011101000010111100
00000000000000101001000111110100
11111111111111100000000100010011
00000000000001101100011011101101
11111111111110100011100110001111
00000000000001001000011111110100
00000000000001101000010001111111
00000000000001010001111000001000
11111111111111011111101100001100
11111111111101011011110000101000
11111111111101110101011010011100
00000000000010010100001100111011
00000000000000101011110001101110
11111111111111000101100001101101
00000000000010011111000111000111
00000000000001110010111100111100
11111111111111111001101111001110
00000000000000000100010110101010
11111111111111111110111001111101
00000000000001100000011001101100
11111111111101101000000000110101
00000000000000110110001001111110
11111111111101111010000100111101
11111111111101110000000011111010
00000000000010001111110000101010
11111111111111111010101001010111
00000000000001101110010111000100
11111111111101111011011011011001
00000000000001100101010101100110
11111111111111111110000101101000
11111111111101101011010100111110
00000000000001001101000110001111
11111111111110100100000101010001
11111111111110010100010001001010
00000000000001111010011010000010
11111111111111101011010111000110
11111111111110110000100110111010
00000000000010000100110100010100
00000000000001100111010001110000
00000000000000011011011110100101
11111111111101100000010001000111
00000000000010100011111111110100
11111111111111011110110110101011
00000000000001100100110011101000
11111111111110100011001110001100
11111111111101001110101000010010
11111111111110111001001011100000
11111111111111111011100110101100
00000000000000001101111101100111
11111111111111111101100010110000
00000000000001100001010001001010
00000000000000010111110111001011
00000000000000111010011011000101
11111111111101010100100110010111
00000000000001101011110000100101
00000000000001010011100100111100
11111111111110011101101010010001
00000000000000100101110101110100
00000000000010010110011101000000
11111111111110111010111100011001
11111111111101101110111010010000
00000000000001011111000100001100
00000000000000010100011110001000
11111111111110100010000100101010
11111111111111000111010010110010
11111111111111100011010010110011
11111111111110110001000011010010
11111111111111010010111000111011
11111111111111111100000100110110
00000000000001001010001010110001
00000000000000110101100010011010
00000000000001010010100011001011
11111111111110101010011000011000
00000000000010011111000111010011
00000000000000111001110001100100
00000000000001010110010000101110
00000000000001111000010001111011
11111111111110111001001101000101
11111111111110001100101010001010
00000000000000010101101001011111
00000000000010000110100101011011
11111111111110000001010011011110
11111111111110101010000111010100
00000000000001111101111100011001
00000000000010011010010010101100
11111111111111000000111001111110
11111111111101111110001111111010
00000000000001010111010100000001
00000000000001111111001100111110
00000000000000001101001110011011
11111111111111000001110110100010
00000000000001100010010011011011
11111111111111010101110001111011
11111111111111101001010001001101
11111111111111000001110111111110
11111111111110110111010101101001
11111111111111111111100010110100
11111111111110110010001101001101
00000000000000101100110100011000
00000000000010011000001010001010
11111111111111001011010100101101
00000000000000000110000111110001
11111111111110000011111001111001
00000000000001000010100011110101
00000000000010010000011111110000
11111111111110011111100110100011
11111111111110010111100101010001
00000000000010010000010011001000
11111111111110011000101101001100
11111111111110101010111001001100
00000000000000110010111110100111
00000000000010011011010111111100
11111111111111000000110110110001
00000000000000011011111110100000
00000000000001100110010010110010
11111111111101100011000011101011
11111111111111111111011101001001
11111111111111011111100100001100
11111111111111110100010111000100
11111111111111101000111010101100
11111111111101111100001101110111
00000000000000001110010011010011
11111111111110001000110110100000
11111111111110110101101100110100
00000000000000110011100111111001
11111111111110011001100011001111
00000000000000111110010101110011
11111111111111111111001111100001
11111111111110110000010011101111
00000000000000000100001101100101
00000000000010010100111010011000
00000000000000100101001000011001
00000000000001001001111001001111
11111111111111000011001101110111
00000000000010101010101010001110
00000000000010000100110010011110
00000000000010001111000001111110
11111111111111010000100100011000
00000000000001110001011100000111
11111111111111100111111001000100
