memory_initialization_radix=16;
memory_initialization_vector=0007052B 0007E043 00000ABF FFF7C77E 0005C673 00040F14 00003B7F FFF67802 00095AD3 FFF6C2CB FFFAAE0F FFF93685 000518ED 00046B48 0006B8D3 FFF641C0 FFFC6771 000D11F0 FFFC1868 0006F687 FFF1D0BC 000291F4 FFFE0113 0006C6ED FFFA398F 000487F4 0006847F 00051E08 FFFDFB0C FFF5BC28 FFF7569C 0009433B 0002BC6E FFFC586D 0009F1C7 00072F3C FFFF9BCE 000045AA FFFFEE7D 0006066C FFF68035 0003627E FFF7A13D FFF700FA 0008FC2A FFFFAA57 0006E5C4 FFF7B6D9 00065566 FFFFE168 FFF6B53E 0004D18F FFFA4151 FFF9444A 0007A682 FFFEB5C6 FFFB09BA 00084D14 00067470 0001B7A5 FFF60447 000A3FF4 FFFDEDAB 00064CE8 FFFA338C FFF4EA12 FFFB92E0 FFFFB9AC 0000DF67 FFFFD8B0 0006144A 00017DCB 0003A6C5 FFF54997 0006BC25 0005393C FFF9DA91 00025D74 00096740 FFFBAF19 FFF6EE90 0005F10C 00014788 FFFA212A FFFC74B2 FFFE34B3 FFFB10D2 FFFD2E3B FFFFC136 0004A2B1 0003589A 000528CB FFFAA618 0009F1D3 00039C64 0005642E 0007847B FFFB9345 FFF8CA8A 00015A5F 0008695B FFF814DE FFFAA1D4 0007DF19 0009A4AC FFFC0E7E FFF7E3FA 00057501 0007F33E 0000D39B FFFC1DA2 000624DB FFFD5C7B FFFE944D FFFC1DFE FFFB7569 FFFFF8B4 FFFB234D 0002CD18 0009828A FFFCB52D 000061F1 FFF83E79 000428F5 000907F0 FFF9F9A3 FFF97951 000904C8 FFF98B4C FFFAAE4C 00032FA7 0009B5FC FFFC0DB1 0001BFA0 000664B2 FFF630EB FFFFF749 FFFDF90C FFFF45C4 FFFE8EAC FFF7C377 0000E4D3 FFF88DA0 FFFB5B34 000339F9 FFF998CF 0003E573 FFFFF3E1 FFFB04EF 00004365 00094E98 00025219 00049E4F FFFC3377 000AAA8E 00084C9E 0008F07E FFFD0918 00071707 FFFE7E44;
