00000000000010001110111001000101
11111111111110011101000001100010
11111111111111110111111000001111
00000000000000111011001110100000
00000000000000011111111000110010
11111111111110111011101100101100
11111111111101111110010000001011
00000000000010011101010110100101
00000000000001111010100000011111
11111111111111101111010011000101
00000000000001010011001100100010
11111111111110111011101101110001
00000000000001110111011010000011
00000000000001011001011011100101
11111111111111100010101010011000
00000000000001110010111011010011
00000000000000001110000110010111
11111111111101110011011001001100
00000000000010100110010010110110
11111111111101011000010000110000
00000000000001011000111110001100
11111111111110000111111011111100
11111111111101001101111000001110
11111111111110101001010111111111
00000000000000000001111001100100
11111111111111101110101010110110
00000000000001011000000110110100
00000000000001010111100001001100
11111111111110101110010001110110
00000000000001011000101110010111
11111111111111001111100111110101
00000000000001101010011111111010
00000000000010100000101111100111
00000000000000000001001010100011
11111111111110111111110000101101
00000000000000101001110011001111
11111111111101111000101010001001
00000000000000101001001010110101
11111111111110000101101100110110
00000000000010001110000001111100
00000000000000110010010011111010
00000000000000000000001000011111
00000000000001101111010000000101
00000000000010000000011111000110
00000000000001011111110101010000
00000000000000010101011100111100
00000000000001100110000111100111
11111111111101010100111010001100
00000000000000100010100101111110
11111111111110010010101010110101
11111111111110111110111000000101
11111111111110100011000000000100
11111111111111110100111100110100
11111111111110101101001011001010
00000000000010001110111110101110
11111111111110110110111000110011
11111111111111100000010001001110
11111111111111001000110101111000
00000000000000100010011011100111
11111111111101100101111000110110
00000000000001001010010111011010
11111111111110010100100011111010
00000000000010011000001100001100
11111111111101011000000100101100
11111111111101101100110100110000
00000000000001110000100001101101
00000000000000111111010000111000
11111111111101101111100000100111
00000000000011000010110111010101
00000000000001111011111110101000
11111111111111100011010010011111
11111111111110010001101111101100
11111111111101000111111111001000
11111111111111010101001111001010
00000000000001101010011001010000
11111111111111001001010011011110
00000000000010000000111100010000
11111111111111111111010011110011
11111111111111111101010000011010
11111111111111000100011011111000
00000000000001100100010100110010
11111111111110110100000010110110
00000000000000011000000000010100
11111111111111001001110010101101
11111111111111000010001000000000
11111111111110010101111000010100
11111111111110010001010000000010
11111111111101101000000000111111
11111111111111001000100101001011
00000000000001110011111101001000
11111111111101110001000010001111
00000000000000001001011100111101
00000000000000111111111110110010
11111111111111100000111011011101
11111111111111010000001011000001
11111111111111011110001101010100
11111111111111010001101110101011
11111111111110000001010111110001
11111111111101001100101000001000
11111111111110001011101110111111
11111111111101111010101000110011
11111111111101111110111011001000
11111111111111001110100010110110
00000000000001011010010100100000
00000000000000000111000011010100
00000000000001111101000010100100
00000000000001111100000000011010
00000000000001010110010111000000
00000000000001001111011000010010
11111111111111010001111111111000
11111111111101110000011010100011
11111111111111000100001111010101
11111111111110100110100000100011
11111111111111000011111101110001
00000000000001001100111010101111
11111111111110111110100011110001
11111111111101100110010001001110
11111111111101110010000010001000
00000000000001011111110100101000
00000000000010010100100001100000
11111111111111000111101000001100
00000000000001000011100111000101
11111111111110110010011011011001
11111111111110000110111100000001
00000000000010010011011111100000
11111111111100110010010100110110
11111111111111101010011010100011
00000000000001101100010101100111
00000000000000011111101001111100
11111111111101111111110100110101
11111111111101110010010111111001
00000000000010011100110111111010
11111111111101000011100011111010
00000000000001010111010010100111
00000000000010010010101010100111
11111111111101101000011100011011
11111111111111111011111101011010
00000000000000011110000010000010
00000000000001110111010000010000
00000000000000110100101101100110
00000000000000010001110100101001
11111111111110010110101110110110
11111111111111010101000111101000
11111111111101001111101000110010
11111111111110010110100010001010
11111111111110001101110100111000
11111111111110001010110101100111
11111111111101010100111010010110
00000000000001111011101011000010
00000000000000000000100011011101
00000000000000110100110101110110
11111111111111001110011110011111
00000000000001010010001111100011
11111111111101111111000101100011
00000000000000111110111011100011
00000000000001010001111010001110
00000000000001000010010110100110
11111111111111110000111010000101
11111111111111110100000110100011
11111111111111001100000100111100
