00000000000000000101011100110110
11111111111111110001000000011110
11111111111101100100001001110101
00000000000000001001001101011011
11111111111110001011111101000111
11111111111101101000010100011111
00000000000001011100010101101101
11111111111111010000001110010101
11111111111111101010111100000000
00000000000010001011100010110000
00000000000001001011001111110010
00000000000000001000000101001011
11111111111110111101010100100000
00000000000000101111100011100011
11111111111101001101001010101001
11111111111110101001011100001010
00000000000000100100001100100000
11111111111111010010100001010111
11111111111110100110100100000000
11111111111110111101011101100001
11111111111111001101001001101010
11111111111101100111110100110011
11111111111111010111010100011011
00000000000001000110000100011001
11111111111110011101011010101010
00000000000001010001000010001000
11111111111111100001010010011101
00000000000001011011000100101001
00000000000001000110000101110001
00000000000010001111001101010101
11111111111110111010011100101011
11111111111111100111000101100001
00000000000001100001000010101011
11111111111111101101000001100100
00000000000000111001100101010110
11111111111110101110101100100111
00000000000001001110111111110111
00000000000000100001111000111110
00000000000001000000010100010110
00000000000000000010011011110011
00000000000000100000000111100010
11111111111110110110011000110101
00000000000000101011001011001000
11111111111111011100011010001111
11111111111101101011111001001101
00000000000001011000011010010110
11111111111110101000000111100101
11111111111111010010110111110001
11111111111111110010101000111011
00000000000010010111101111000011
00000000000000111111101000011100
11111111111101101011101000110011
00000000000001011000100001100111
11111111111110001100010010001001
11111111111101110000110000011110
11111111111101000001000010101010
11111111111110011101111011010101
11111111111111101110011111010000
11111111111101101001011001110111
00000000000001111111011001101100
11111111111101010110001001110100
00000000000010010000011101110010
11111111111111111010001100001010
11111111111110110011110011010000
00000000000000110110111100010011
00000000000001110001110000000010
11111111111111100101001101110110
00000000000001010011011001010100
00000000000001111010010111010100
00000000000010010011001011001100
11111111111110110110001101000010
00000000000010001000110110011111
11111111111101111011010101100110
11111111111100011100110111110011
00000000000000110111010001101110
11111111111110001000011000111100
00000000000001001001111111001000
11111111111111110000111001100001
11111111111111010111100010011101
11111111111110111011110110110010
11111111111111001000010100100001
00000000000001010111011110100100
11111111111111001100110100001010
11111111111111111011000001101101
00000000000001000101101011110000
11111111111111000001000000110101
00000000000001110011100101111011
11111111111111010110110110111000
11111111111101101010111000101000
00000000000010000100100011011100
00000000000001000110101111111110
00000000000001001100111001111010
00000000000010000110101000011100
11111111111110101111000001111000
00000000000000010100011100110010
11111111111111101011111011000001
00000000000000000000010011101010
00000000000001011001001000100111
11111111111101011110000100101101
00000000000001001110010010100011
00000000000001010011000000100010
00000000000010000101101000001011
11111111111111011101110011101111
00000000000001000011010111001110
00000000000001001001101011001111
11111111111111101110011001100001
00000000000000010001000101000100
11111111111101000010100001110000
00000000000000111000111110100111
11111111111101110010001111100110
11111111111110101010110111011000
00000000000010000111011101011001
00000000000000101011001000101010
11111111111101101001101001110100
00000000000010001000111100010100
00000000000000101011011010010111
11111111111111001110111010011010
00000000000000111011001101010000
00000000000000111011000011001110
00000000000001000110111011111000
00000000000001010001010001010111
11111111111110110011001001010001
00000000000010011010100011011110
00000000000001000010110011100100
00000000000000101100010100111000
11111111111111101111101101010011
11111111111110100111010011101011
11111111111101000011111001011010
00000000000000000001000011100110
11111111111110011010101011000100
00000000000000111111110010111111
00000000000001001100111100111101
00000000000000101101111101111110
00000000000001000011110001001011
11111111111111100110010001011111
00000000000001110100111001010010
00000000000000100000101011101101
11111111111110100101010011011001
11111111111111000001011100101111
11111111111101100110111011100110
00000000000001010000000000101001
00000000000000000101011101000111
00000000000000110001111001100110
00000000000010001011010010001101
11111111111101101100101000101100
11111111111101100110001110110001
00000000000000010100101000111110
11111111111110011000110100100010
00000000000001000000010010000001
11111111111111100110010100010011
00000000000001010011011110001010
11111111111101101001111010100000
11111111111110101001111110001111
11111111111110111111001110100010
00000000000000010011101110100101
11111111111110111111100111011010
11111111111110001000000011001110
11111111111111101101010001010111
11111111111110000010101001010100
11111111111110010001110111111000
