memory_initialization_radix=16;
memory_initialization_vector=0008EE45 FFF9D062 FFFF7E0F 0003B3A0 0001FE32 FFFBBB2C FFF7E40B 0009D5A5 0007A81F FFFEF4C5 00053322 FFFBBB71 00077683 000596E5 FFFE2A98 00072ED3 0000E197 FFF7364C 000A64B6 FFF58430 00058F8C FFF87EFC FFF4DE0E FFFA95FF 00001E64 FFFEEAB6 000581B4 0005784C FFFAE476 00058B97 FFFCF9F5 0006A7FA 000A0BE7 000012A3 FFFBFC2D 00029CCF FFF78A89 000292B5 FFF85B36 0008E07C 000324FA 0000021F 0006F405 000807C6 0005FD50 0001573C 000661E7 FFF54E8C 0002297E FFF92AB5 FFFBEE05 FFFA3004 FFFF4F34 FFFAD2CA 0008EFAE FFFB6E33 FFFE044E FFFC8D78 000226E7 FFF65E36 0004A5DA FFF948FA 0009830C FFF5812C FFF6CD30 0007086D 0003F438 FFF6F827 000C2DD5 0007BFA8 FFFE349F FFF91BEC FFF47FC8 FFFD53CA 0006A650 FFFC94DE 00080F10 FFFFF4F3 FFFFD41A FFFC46F8 00064532 FFFB40B6 00018014 FFFC9CAD FFFC2200 FFF95E14 FFF91402 FFF6803F FFFC894B 00073F48 FFF7108F 0000973D 0003FFB2 FFFE0EDD FFFD02C1 FFFDE354 FFFD1BAB FFF815F1 FFF4CA08 FFF8BBBF FFF7AA33 FFF7EEC8 FFFCE8B6 0005A520 000070D4 0007D0A4 0007C01A 000565C0 0004F612 FFFD1FF8 FFF706A3 FFFC43D5 FFFA6823 FFFC3F71 0004CEAF FFFBE8F1 FFF6644E FFF72088 0005FD28 00094860 FFFC7A0C 000439C5 FFFB26D9 FFF86F01 000937E0 FFF32536 FFFEA6A3 0006C567 0001FA7C FFF7FD35 FFF725F9 0009CDFA FFF438FA 000574A7 00092AA7 FFF6871B FFFFBF5A 0001E082 00077410 00034B66 00011D29 FFF96BB6 FFFD51E8 FFF4FA32 FFF9688A FFF8DD38 FFF8AD67 FFF54E96 0007BAC2 000008DD 00034D76 FFFCE79F 000523E3 FFF7F163 0003EEE3 00051E8E 000425A6 FFFF0E85 FFFF41A3 FFFCC13C;
