memory_initialization_radix=16;
memory_initialization_vector=00062902 00017581 FFF69AC0 0009D805 00050459 FFF7F101 FFFD6189 0006653A 0009B1A2 00070F7B FFFBE7E0 FFFA64A4 0003B966 FFFC4FBE 00084408 FFFBAB7E 0006470C FFFFCE30 FFF5C835 000771B0 FFFDA4F9 FFFC4DE0 00054D7F FFF3FB55 0001D0D0 00006991 0002016F FFFE6F20 FFF9ADDA FFFEE6BD FFF92A3D 0006FB8D FFF6C3D9 00076052 00035F02 FFF6B614 FFF70A9E 0006FF56 00076167 FFF44D95 00027AC6 FFF6B587 00004E24 FFFD8FFC 0000850B FFF7494C 000312D5 FFFE8F5B FFF78D5F FFF77B90 FFF8920D FFFCD098 FFF6DCC9 0007A604 FFFCAF91 FFFDEBC5 FFF8CAED 00053387 0000C3AC 0005AAE2 FFF90C33 0006E47D 0001122B FFF9F764 0003D8E0 FFFB0BE6 0002BFDB FFF66A62 FFFC8441 FFFAE144 0007043E 00061D55 FFF9666B FFF576B2 000623C8 FFF81C5B 00004BE6 FFF7FACD 00074564 000411B3 FFF6F5FC FFFD8DA8 00053F11 FFFC08C7 00087273 00074B61 0000C64B 0007BE18 000694D5 00086C4E 0004F0E6 00092263 FFF8CA6B FFFDD6A0 FFFE5B47 FFF82BAC 0009E19B 0004D61D 00021F36 FFF63A22 FFFA6A3E FFF6EFB3 000132B5 00081EFB 0002BECA FFFCC0A7 FFFFEC92 00081646 FFFA1FD0 00021F36 FFF6E01A FFFCED2D FFF18929 FFFEF860 FFF6728D 0005CAAF FFFF87B0 00050F9F 0008CF4C 00023E09 FFF695C7 FFF50B2F 00045ED0 00056D43 00086664 00095AEE 00015C05 FFF64FFB FFFFBCEF FFF74E23 FFFE5A21 0000B6F1 FFFDA477 FFF93689 FFF4177B 0005FE67 FFFD79FB 0003B9B2 00087023 FFFCAF9B FFFFA6B6 0003CA16 00046CE7 000046DA 000126E7 00032D70 0005B8A1 FFFE06A7 000473A7 0006398C FFF596B8 FFFFD745 FFF9024E 0001A59C FFFFE752 0003D998 0009EBCE 000913BC 000976A0 0006C044;
