11111111111111111101011010110001
00000000000000001000111110100101
00000000000000000111000001001011
00000000000000000001011010100000
11111111111111110001111011110110
11111111111111111101101011000011
11111111111111110000100111001011
00000000000000000101110101100001
00000000000000001100111010010011
11111111111111111000010010011111
